A39D0DEE7F13F8CFE7C7DC170636BE37
3814FBFBF5F73C03FE7FF4E8ED1603EB
F4A0002207F0331CC7FBD77F203A081C
803BEBECF906DAFC1D2FA50A0A4E13EB
488008FE0712CF0EE2213D4BFFF206EC
FCB1FCFEE1F043F1F7187F4BF1E7FFFD
3244060C0AFDF6E9157F78AF0DD40CDE
F4801FBE09F0B6F662FC1E1A50E34825
FD7FFD0905F8F7F8F71F210D03E406FE
FD80050D28D20909BF13CCE2012A0A19
4EADEB0C1BFAD2F7D5ED1D7F0400FF14
407F04EFF1FCFAFCC4ED7BD607641EF9
DE7FF91DDF0827F008C0EE9BEFC9EE10
07C1241D2C1315ECF3A380451E1BE707
E4C921EB430923FF5AE846EBE67F39D6
4FD0F72CB5D7770E8CD3BE7FED0E2BEC
