00000000000000F5B13E288005DFFD00
00000000000000F01780A149C2A6C93B
00000000000000C07CF2757F36B2F5ED
0000000000000080A122A2B72412339F
00000000000000EEE5FBFD7FED142BF5
00000000000000F507017F86FB00FE02
00000000000000F3EAF211D4E4077F15
0000000000000003F2F6210227EA80EA
00000000000000F080D362A8F434E8B5
00000000000000515A60D67F26AF64CC
000000000000000249E780C8EA6BED01
00000000000000252339B6B9C9EB8011
000000000000005AED8980A6D40AAF38
0000000000000037E3E280E2F608EBD1
00000000000000EC32FA03801E1650EE
000000000000000D8004FC1A06F8FD05
A39D0DEE7F13F8CFE7C7DC170636BE37
3814FBFBF5F73C03FE7FF4E8ED1603EB
F4A0002207F0331CC7FBD77F203A081C
803BEBECF906DAFC1D2FA50A0A4E13EB
488008FE0712CF0EE2213D4BFFF206EC
FCB1FCFEE1F043F1F7187F4BF1E7FFFD
3244060C0AFDF6E9157F78AF0DD40CDE
F4801FBE09F0B6F662FC1E1A50E34825
FD7FFD0905F8F7F8F71F210D03E406FE
FD80050D28D20909BF13CCE2012A0A19
4EADEB0C1BFAD2F7D5ED1D7F0400FF14
407F04EFF1FCFAFCC4ED7BD607641EF9
DE7FF91DDF0827F008C0EE9BEFC9EE10
07C1241D2C1315ECF3A380451E1BE707
E4C921EB430923FF5AE846EBE67F39D6
4FD0F72CB5D7770E8CD3BE7FED0E2BEC
290ADCD6F4E102EFEE12D039CBC50137
1EF6ECD1EF1222F6F108F5FFD3F3FCD8
C01DEF80F8E2E2A282EBCFB0DC23FC04
002EE00B23E91025FEE7170E0602FB00
28C53831EE1EB80823132636D92413F2
CF02201B060507FD1EEEF3F30F22E910
B20FF816D0A432DC020319F3E746ECF1
E70E0CF1E0F1D910EE12CF2B11FBEF1A
0D2011DB26201A322AEBF7E1281CD21B
412F63E4052F241EFC5CF2FD050C2CA8
EE1FE3FE388DCFF2CBE90B28FD1D05C6
2E0404E1240E2AEE1A02FEEE1B120F35
26BC1905D2E0ECDC0BE4DA2A3AFE0911
12542E1D5705E71FE5E9E8E43B121BE8
E3DEDAEA07B2F223FCF2EFE2F401E1DE
1812FDF50AFC090DFDFFF0EEEA21160A
19CE26FC1B3303DCFBEAF91FFCDB36FD
EEDAF8EDE9EB18E02F09F70CD9EFE8F5
02A9206CBB1E05CB1EC0A1EFB714E317
FEF21808D9B0BE06FA35C6F908EE03E5
DDB0FDFDEF0FDEE240ECD5FBCB110A08
15F8171266111D2313F64110C9FB1309
093CDCF1C715CAEA0BE7DEDEEDEAD309
0CFCEB00F3F5D922F4090C1A08F2EFE3
4DFFAF10257F050102BC6AFBA7BFF1F5
CDBE322702FF0D4D17E33B0D1DEA01C4
12C0FB1B1315DB4B09C8C91E143619E5
F1BE20BAF62339CFF8232EF0BA231B19
41B8C73ED17F4F251E142E18A7D1F9EB
E8C21F1CD2DE08EEBE1023C0A4E4EDFA
F7CDBB8744801EDF070BD6EDF92EDFFF
061326F1EDF80AEB013708EEF31DEE04
96E17FBBDA3707013B2C021FF9ED3B2F
0CED0BF809E1F705FB091CF21212D8E9
190E192F06F800CB1FF1F9CDD9ED0E3D
02F215C9F2321902240FFBFD2204EE0B
642313DEEB1528E9A7DDD8EFE923E203
F616FA0EF3E7E4130ADEE4DECDC4FD19
0217E50EC604D4F70DEC3FDECEEC290D
F42BFEF2021CF504FE04F41EFEE4E411
07FBEBE00AF222240DF6F0FFFFEBCD0A
0920FA0D22CDFB23EFC5EA05A7E00628
FF420727FC2742C8103CBB2D0DF9C8CC
E9DEFDEE210F23F30700E5FF1E1033DA
F3051D07E9B531031D1C55460E11EEFD
0117DF1BE20DEB06D50C0B0520F4F80A
DEFBF3D5E51937FC03EE2E3DD03306EF
1CFD021EFA0AF41408FEF9F7F0F71BF9
D101F2330AE9D8E7E4214108242918D7
B6FE0D33FE02D123EA3FFBF9DAE2D5E7
1134E2CAE1C1D5CA1938C0B667EDD632
1E41FCED0C2C3C0C191852FD10E202F9
F921ADE8ED270429E2E16051EC2BA1D4
FE151A11F420241FDC2C1ADFA9E92D12
DBB8CFC820B7DFD7C3D7D722D241F740
F708F2EA2922F3042E3A091B234EFCE9
2EBE0E01CCB91B29EFF2F605192B070C
F22E0213372B21EF067F08EA5A1E0814
0A392109AA2B5EFDDC23071430330FE4
18CCE02BE10A090CEDEA1BE7F10247F8
DBD0E30BB5B415A401B5BE17EAE814FD
53FE0EF0E63C2CDCDB1D28F91E402902
125105FFFEFD20E3D90C2602CAF0111B
F12EDD212C0A02FB13051CEF08FD020D
F6E2E309DF32EEFB110C244254412CF1
CAEE062766D9D647E60D91100CF90DED
BCC9445701E0FC289D38B41A0EF5D62F
ABF0F620F3B3A8E7143A80E60301F3F1
FCD0141E80B3186906175B3002D8BC25
BDED1D2EF3D0193C000D1EFD800817F3
D5ECD019C4C229EA080E38033A271612
5740610FCE394DAADD3825C94C6CC511
FAC2005D27B0D91FFA23B6F219F6DBFC
D900E6FAE6EC1813F443F51016FF3D47
7FDD60FEEB23E74BB934D8373B662CE9
C207242E5351B97F19F0BB281DD43FFE
D7FCF52B6729072CE94ED93D1A23D0D0
D20B0C5738A1ED1EF827BF0F11E7CE0F
4714E1E9FA531FE40007FF27C904D819
7F2D170EE2410917180F711E3237450B
BFF0F3E8F603D303C82318D1C2DBE3CA
02E51006F0E725EA0AF527F306021C1F
0EE2100C325CF5230BDD18DD26341EF1
15CCFAD7DD2BD9FE31E60D22E6FFFA08
C8FACB16CCF6BEEC151CDCDAF21F3FF3
E952000A221C023C219F1013F0ECF824
18F2B041021220E51200CEE2E4F105E7
00ED2920E713FEE7FD2D0FEE10EECE04
F8040AF5FBE42908FEF50004FD06F404
D0E5CCE87B8D15D7FD020007FD0215D2
F2BDE8050EDECF09283FB5C32F09D7EB
EB060807D7121217FCEA00F40C090915
04280E47E005D5FF4603B4F8A82D04BF
FAF6F4DECBF71CF8DF050FDBD626EDFD
E7FE09FF28DAE6150E1D08F1F41524F7
FE29E90D30EFFD130FD8F0160CF5E305
46E323EFDE54B05BFB16D8C01A210A60
E636F71217FB19DCDB1216013E121304
F519DE6BB0CCF005260717650B030E04
1C161AF2FAE6FF0504FC0D0EF1FCCB30
D9E9DBF2FC611A08F2B20BBE08DE3CDF
DEF1DC2121FD08FCE707EE1F0EF3D3E5
0A2080CDAAE2FAF2F006CAF69EF0DDDC
37C5EEEC36C2C8F7F71BF142E1F9C71E
EF3CEEE5CAFFF6D8F5FDD6043A2303E7
2714D1F72E2FE01F26120C16380E0823
EE2AA74EE5170AD6EA14F05E7402F0D7
4B0005170FFDD906100DFCF41606ECD7
47371EA1B4D3E609FD37C411DA1B1A25
0F1BEF0E080964C9FFD107E325CE7FE4
0DE9160F03F9080DE9E6D1EDE807DD06
DCCF14090803E90D041002EAF714E806
242C29203DF11BEBD7E9F812FBE5E143
247F28D2E3571E1313CF4DFC261518F3
1F0235CED805EBC5160929EADEC3F7C5
EE2302EDDE0BF7BEEFECFCF8E8FC25E8
4D01D702B3F10C0111E21142D4181DFC
CE3D05E43E2026392A0BF9FA0405CB13
2BE12306152F0960E6323B3505A861AF
D3BA9F453AA9AFEC06F9FB25D4E27F14
F9F85F21CA2EDCA2FC30A8CFC23EE6FC
F825FB160236F213FA49D7211EFCEAEB
133056F682593EC51E15AF0327EF5C0C
B73BFB22AA13F801D5F73B18CEC99B06
E4DF17EF011A06CCE90F1ADF071CCDB3
CEC309FCD9070321F50FFDD6C80AF8FC
1CDBD61A3FEDB6080422080132E7BDDF
FB0907011D0D11FC0D0C1EFF06FC3E06
DB04E9FA01BFEB1918571B3E9A16FD0D
F91304E7CE07EE25E2E31201E6E9FCD5
0D0485472D92161731D6311654EAFF34
0A04EADBE7FEEF12FFCD1F1A2709FAF7
D4C6EC13C3F8F2C41B173A0BCC06AEF3
120A23EC0CEA101221FEEC18D909C5FC
12E4DE2F32F475F007D4F8E1D349EE15
DA0DE81541FD04EBE302DC40E7E90FEB
F9133DB2F501FBF70F02FDF4253028FD
BADFDB1706C1C2EB2406F7F32008DC15
43CD08D423C30CC20D4E0ED80308F6F6
17FC1A04060C1704FEF323EE2C03CBF3
07EF57FEEAF5F92101EC3BCAF9EAFDF7
1C19EE0E0A0E3C2819D7E0E5DAFCFB15
FBE9F7EC38F9CF16E1FF0BDEE40A14E6
CFF019FF040D160717EF11DBEA1AFE05
DF2C0500DD32152B1F2FB144E8F2AC3C
01E80D14EA100DF130F0CF11EC04312D
FD01F8F422E3E8CE0B3197BBEE2DF903
2CDEE4FCCEE8DDFAFD06310A2AF511F2
1929F9F0F9E81703ECF6DF001CFA0615
1B07F6D7D1D70914DB2DECE822FE15FB
3FE5DAE5CDF3CADEEDF011E109A710CF
CDFCECE180CD23BBDACDEA041101B03A
3F2EE5BC50ECEA09FEEF3D01FAF43C34
06F81111800DD9E32AED0ACCF2D9E91C
AA0FFA0907A2C0E1E4FCEEBAFAB234EA
3514F1170305E11DF6F111F6E3C4F6FB
DE03D1DB93E135343809A9FB19D3DDE8
E7FDEAF1FFD7F81A03F20ADE28EB2D03
FB08FF08F2FCFB09F812FC03070E0CEE
1CEAE8FDDFFD0B06F9DDE91DFA04F50C
3F01D048193E0721CEF01DE7C9F4DA16
02EBFBDBBAF4231B6207E002FFC8E9EC
C022F004BAA42826CCFFDBDD05FBF20A
3EC6580CA6C8931C7F35F5DB6AD84AFF
F634F23DD3484E1FADEDD711BF038EFA
25D228012927F2E2D7EFB6C7080E7FC6
F02EDE17D6D91BD23F80B6CC055D90C9
BD1F29EAB58C1932B91811360ADE21A7
F5F3D6C902E0D0F6F4E8E336F21D3111
DBDAF816E14ADC395A1063F2E8EDEC12
EACCEF19E71CE402060CC65100FAEE05
1A03F4EF0411E1170DECE1DBEEE82E30
3022EB2F51DCF1C602D6B116D9115CD2
FF0D301E7F1ACED50502D7FA2528420E
0B090205201AFCEFEF16E91B0FFB2608
FC1D272EFA4C06B7BCE0DA0C03F632FB
FC01272C111305FDDBBE47F7E5F6F31D
06D4E605F6DA1D0820FC1AD0FEDC4818
020AD9F7ECD1FE2D0109030516C8BEFE
D8042E1A29F61301C71BE70EF92CEB08
F015C515200C13F8F2D00612E912E521
05FDDDE91D140CE5CCCD3240F8F8FB26
F710101E2925D9A62AEB23F92E1C053E
A84BE511D1D4F711C95CF9323917DDD2
F0EFE50F07FC18FA06EE1618EC2EFC3C
08E909C9F3D92D44B6FD0A15D914F2EB
CCEEC1121CA3F92D112BD3C8C9F6ACDF
1EF7E10214F7E20E0218F2E4FA0FFD2C
FA211EBE4813EDF4141AEBE0C6E957D8
FEFD0403E0EAE31918D61ECB0622121B
FF0001F9F400F5FEFEF614F103070713
F5051A10E20BF4EF10023D19E41D01ED
E01F0B01F53DF6104227CFC3F9F1E80B
01FAE7EB13110CE030F2D7E1FEF2182E
7BE4B4DFD02B4ED1110227F82C2F0AEB
C20CF010241433021AF0E90A1D130C1A
FB2BD7E3F6F2F707EFEAF70C4B190E0A
F9ECFC07F912D3DE1418FC0304DCE01D
C0FBF64021F0C5DECD06062F1554DEFB
563D23110E162BEB6843DC74D6029BEB
57F0B3E2CAF4DAFD39F20304A235BBDF
DAEF303F21103A2EE0E0AC2C1623EE13
E7FEC23FBFD10C0B7DF3C02BC5F00C2C
2501431AE3E0DCFE29F0D72C231A1E11
4F0E3D112BC016E08D022BF6B31B5DF2
2AE92515141C15F9D5EC73D9F7F9E3F3
F10A12082300F70400080310F0F9FCEF
1A1928F7ABF3E725180CD5FBE8E7F32D
A10309387F1A17DBFF1E27E50D151007
E61ADDF30BDF02C4DEF735DE03E71011
DD127FFB18B72A16F9203212E0162915
5B083DEE2D55F7CA51F82240E21ED3E7
B41DFB5C78FC0F09E8D11D18680BDB07
62D8FB13A7E99ECB2E36CE10DBF0E31C
ADD20A26CA32E1FBD2E013E6D521F6EC
E1DEF0CC9E003C0C6EE4EC48AB2DCEE5
E01E17E1BE511AFD1C093CE5FC34F21D
14D0F0F1F0DB25291A13E8ED220BF521
25C00A06FD38C04FEF66FBCB37D580F0
7F26D0179235F20656FAD111EA2A0DF3
E323E61AA9AB2319B739DADCD2C9FD34
E728F903D214C758ADE82DF559286137
7FF4F6E6A61DFC2307020CFA11060C13
CCBB37220D3D117F16092DE041E52AF2
0630D623FAC5FDE31DD6140DEFF71335
07311DE03FDDD603ADEEE30511FE7F13
F037042B4D031B020111DDD4FF10D313
B9F765FC3CF7E90E0BFD201938FFAA15
FEE1B41C260CE0F7FF21F8DE800D4101
06250303C6EEEAD50B0614350969041B
F84CB7B68EC90B2512091CF11402D302
02ED070F5F22AC244CE74F0F35B0B132
12F01F1501EDFA061206F3E7F00537F5
D705240FF0D7141B2241E431F911FB13
14BAA90C19001CA3EA43C107E2E20010
E61366F20FF2F1FC1B2405EEF3F4F905
0757FDFECDB83531F4F5D9D4EBB73113
04F634D7FB03DCF72C0030EC41FA0017
F10506EA21FEFEFD02F10B1F0A0B0D11
05F5F1F3FBEF2A05EEFB2D10F01847F0
12F101FE2F2109FE1B1CEBF606F9FB0F
08FC0508D105FB2E22EAF30CF1FA1108
170DE3F20B1C0A1C101F2B1D2CE4D6C9
F6F2E1F9FCEFFC1CEF0A41121BEF0518
1C09F00DDD0CD344FEEB09FA0A0FFAF1
F0EF2E0BD4E424E0120D0B080CCF041B
0ABFCB8B25942BF8E5F2FFE0F3DBC803
28FFF241D2E4FCF7FFCDC8253E1220F7
7F15D721A72A3EB73C0AB2A305C80DF0
F747F21FEE1EE7D0E2F6DFFA1A00D267
EDE5FFEAF1E6FED62A0442A1B55AC30A
E61C19F5E4E60804FE12D418DB080101
A33DFEDC11F0110E2714E2EDD1FD1738
F810FCF5F9ED052EF20D2AED0C03FCF1
02021519FCFB0313FCFD0801F1EB01DB
F21915FBF621F52721E0E72BE5EE04F9
ECDCEE37FDB4F0C6ED2DEE2015350406
FC3D24200ADC0B56C9CF0F23B711F1E6
FE1B4C08DDD0D818D1052EFAEA01220A
04E5455027E6EA1CF40AF4F8CBFBF409
F210D716C223F5AF13F9BC184AE10EDC
9745E1D1DA21BBF83EC7F2004DF0CA08
1008D006EED8BFFDEB23C5F8033524E7
6EDA09734B160405FD18D8A3CA38F4FE
36CD3506EBB435B2F436E2A5D643D817
E00B2203A5D012BE09CDDF1AED212346
10FF8A1B1E120F093525C6F11EEC2F29
7A0DF41C0F0A01FAFAFBF41808F61613
F21F006CD638FFBA29F43FE580F2ECFD
EFD92021000FF65A06170BF3CBFF03F1
17F1ED1B170EF629FDE5EF161DFF0AFB
2203BCC641230FEE081CDBFA5815ECE4
121EF0F3FFF603D5F807DEFD0A0FFA03
FE18F1D5B0F9DB6BEF12B82DC02B4F18
F20836280FD818E5E6F3FDDB14E6DB0D
18F31717FFF3051F0208C9E3DCC4F915
010BF50A15F000CDFC150019EFF12619
D5D5E6FDE410BBDDCB0AD915320FE8EC
11CC2FD2C50D640BF7BCF157E337C70E
0233EAD0221F6ADDFEB6B4C6E8C41523
FCF40EE4E2002A0BDC1FF50301FE1AFC
0330DAD62607F2F5D71E05FF2505C00A
D2E4E4F4DDFCE3041830BDB514FFD92A
130314D60FDBF702FBFCE80300FCF048
05DE18230E27CCECF8FFBEDCB31A010B
020C17EDF704F511F60CFADE1EE90927
F3FC0F0E05F0040700F2FE1600E50EFD
DDFE2408D81324180E3520EFDBFD0BE6
FE10F6DB9EEAEAFF0E18E3DCEFD3F00B
FA0B040300F7F804FF040AFE01F912FD
E8342E69E91C1DEDD3EE2DCBE20754F2
3501E233000FEBF601E9FF2DAA02BCFB
1107EB2003BBF4100AEC29EBE3FE11FD
E7F1EAE3D1EE0903FF1ED7E7DA2B01C8
022B060D0AF9FEFC0500FD0A02E0E4FB
18DADCFF0AF906F1EEF7240B481AD1E1
E7CBECA43D3108F8A019EC4FDAFB091A
0904E80DF2F70808FD17F80DF7EB07E5
B2DEFD82D5DAD403E02F0005C85D3F3E
E924CFE30420FE27F8E5170BF1094725
E1F6BDE222FBA40ADE47EEBAB820B204
0F090000F807FE030600E7F7FAF1E50D
0935D6F2E90A12FA19031A00D9BF03E2
151BCC1719F3DF0606FBF31912FFB6E2
2BC9E71A1EE91DAFDB0CBE0E48C649F0
0B1800122BF3FBFC0AF9F0FEF2FDF5FF
D07F4B54F9C5E6FB17D5E80E9C2502E1
1AE6D1B81AD4170BD707FF0CAEDDE041
D127EEE1F9E203AA1DF1F01615D6070F
9F342E10E9F21DDAE7F5B6F830D30DD2
0A0D043C2CFA02D8F404F9D2CCFA0EFD
1EEE1608073307B612402EDFDF3930F3
CCE349C524C8DD37329505300B07B9A9
23E905E51BE0061B37FA1F0DD6CAE5FE
06FAD5AFC1BD0306C79E3704EAF52425
F1EC3DE6D0FC01F6EEE105DEF405DD01
030719F4C010E5F624DCCBD580C41602
FE041829EA0111FFF313F4E7FEFF170E
84120B3AD700F310161E02D047152B2D
ACD5599BCEF3EADBDAC608C00E3E3035
B50A3F6109243926030604F30F2615E6
F904000012F7F311F0EFF9F9FF16070C
21FF222205E9F528C8F6ECE2EC3327FF
2217E20CEBF6180FFDDAEBCCC109D00C
1FDDC0A8FF06CE9835D5DFE013E00F1F
800158FDE88E53E711D71FD3FF38FB74
07FCEBFFED0D0AF708F208F20418F405
F712D44DFC1E50171402CD1CE711310E
F8A4D002C0F64209D6AD30310EB81AE9
01EA100C0DFBD9280409EB1E21F5F202
18C62FE5E0E300C80EB113B3BCF9B2FA
F3FC0A0620FFF2C6F50A160B281D1516
E509D001B4FCFAC6D6F1C0E5181D2808
0204E9F70DF414DF0304F6D9010D1BF2
2DCEED10F2E20BCCFF230228E7F1FEF9
04FFFEF9D0F9223C1FEBF562FACCF4FC
DEEC1113125228F3FDDBC5EE2437B206
F809F8EDF523E90C0A0BEDFE0B050F0D
D48BEDFA0D06112925ED1D3CF8361842
FF83EEC9F8FEECF3D01CDFF1F10A38FA
19EFC60A15E8F6D644E5FF7FD3F1ED00
EAEB2300CF07185AEE28D8E5FF0FF726
F01001DB2F05F5EDFAF72CFADB1803F3
EFF403D615EB0324E512E22C2A21E8FE
F4ACAA0413FDAE24C4ABC11D3DA2FEF6
1016E9E4E4FFECE92EF716EEDFCB12ED
200507E3DDD933E0AE22EA24F4C84E03
00A2B7CAF1FB4129F9F52AEDF62635EA
F8FD03CE1EC06E1ACD08C50DD1DFD659
F5040F140C15EEF9081BDF1BE8FFE2F4
E24AEE02181222F1080605060FEE46EC
E208001017F4F7FCECE61404DCFFCACF
2EB724E0F9FE303613FEF5E8B8023432
228000EA32F9FB190321CF380C090413
2490E3EB2A05ED3FFCFA7078CC58DE44
C3C5130509F329E9F9FD3219EADA06EE
E2EB0BD50B1B24FB142B1114F206F6E4
E3ABE0271D0CDC02EE1D0BE6D8FC0FF0
0A2CA9C93CFDF0292F151EFB7F0E080C
CFBEEC21062356D638DC36F225F4FF0A
C2F7B9E1F7CE11E4A747BD2E6010D608
105DB3E97FEBE92A091D1E0B1FC20FF3
E84180FB231E2257FFDED5BABC1E44CF
A54343F48006F520EDE309ECD1152CD2
1EA2FBD701180AE3932EF44EE1D40B2C
1892150815F5EC17EEEE00FB01130007
DE9AED3AFFE40DF50BF0E980342C1D17
7CB77F75C10A1B06D7345E14F91B001E
F2F525FAF2A043F333F9A2310D1518FC
F6030801FD0BF429FFFC0CF60CFDFA0B
CBF1020E09E1D5F141F81C18175EE822
EEF203E8DCF2F70EF9FCC8DE09E4DB0E
E1DE00F3211C2FF20F18D7F0EE2B2007
E9E1E01AC7D75131FBE8381FD3B9CA48
F6011C1CF3F00E1713FD140BF1E1FAF7
25EC0F14F43122C7FA1609FC24F7CCBF
92021E2ADA15BB0FFA05EFDD11D69D3F
20C41004D3F909FEFA19F0A0EE0E33E1
E0C2C4AE2228F8DFCAE43609E1EC26E4
00F0E61DECEA04EEFFFDF1221313F510
E46A325017AA35EE28F1F71A28FBC932
C07F00F82F09EE0D1B010AEE1C1B1202
1CF017FF0808ECFBF605F42DA2BCF939
31E5FDD9D8FC08E5E4FD0236F70ADBFE
9F049FD9F3261A118018FDE7F523DEA5
FE00F9F905F0F5FEECF5FC0C04FEFA07
F72E1BC0DD1E1B19F0D218FB0DF32C5B
2C5106FACFF7DF17EFCA222E7F1EF4F3
C29E371ACB031E272822DEED33E4FA0F
A7CAF52008EDF4190C0CFED3F119CAEC
EA0EFE0BE6F0EFF6F10FEE23FDF6E807
39F541C61FC5EAECFEEBB9F7137F1AEF
0736132D97ED543EF6DA34FAFC145C32
1912F6E8F7140C051921F7E8FFD91FFB
062D88FC0F49E413FC4F74AC0EC20207
0008FF1EFDFCE4F9F60E151212F224FB
22D31E072C18F633E4F1E0DD00CEE2D7
FB0104FCEF0D0CF81EEB0106EAFAFB16
0BFEE601D3DD07E7E806EDF3F4040E17
E9E103F4040DCF0102F60E00F9220B2E
201B484202F901D404E61620B4F407F0
F80C1DE9F70EFBFFFC04081100F80111
1E33A9EA1ED309F6F0F7DE57F8D50B40
E152FA0AFFF8E814E930F0FA30C8FCF6
15F12A3C03F507C9E40218D01902FCEC
B1FBDF101B081914B938D1F610D112EB
FF1BFD0FD90DF8FBFAF414FE0FE1F80B
FBE20A1AFB46295C06F42ECCEBF01334
F8DCC0D65EBE8E16D705F43ADBC6E135
FDE0D7140D0613F40C1006FE20D920FB
328DD2D20DB2C8D4123C1302C917D7FA
E823DDEB1025020EF827FCE9F30E09E7
CB1E0705E8203856E012E8D811E6C9C9
0CDA1FFE0C01070BF213F6180F08EB24
0FE1F5DD0105E20E00FA120B2934292C
041821BD20D00606F0EEF6C8204A22FB
F9EB0BD90ED012D30DC8E4F7220EECFA
03FD03FEF80EFD13FD0B040306F7FF00
120FCD3518E01E09F9FC0701F1EC032B
F70D11D118F9F41F003B05FBCFEDFE19
CDE8D3ED25B6EDF93325FB191F11B9D7
E9FF2EFFE91DBC20E828EFFCDFF9EB1D
05F609F6F5F5E712F61102E3F91707FC
03ED2BEEC22AFB04D421E2BC040CEC2D
E6B94FE4DA9FFA7FFDEA52D215D0D3E7
1CF80203E317F3DEFF13FBEBEB12020F
1916CDE2F9EBF3E9F944BF335430D0F8
29E4FA04FF17F3EDEAE8FB15FF04F412
C8E21C0E3329FDD9B70D332F52DC47DF
F81DDCF717F8FB10FEF20FEF09F60012
0414F7D9022F24240FEF12FAF2F00A07
0FFEF631F6F90AF11500193C19DFF0FC
270399F70C1D36093FDADE0D004820F6
CD2BF522A5DC4C0FFDE319ED10C8F333
EAEC0212122328EF0601FEF3FAF607F0
21160ADDFBF40C317FC0CEF6C639D70B
E0322DFC6F3FF0B822942B3EF8F0F556
020604DFDEBADCE415EA191AEF1701F3
264522F211F10834F5ED05FFE4F8F709
F61E1608EBCCDBDF080C1EEEF6DEF62B
CCF0F9C860D201FEF1FBFF280F0508F0
06E2A911F6FF000B04E710150E1E1EF5
1CE616070AEA0EEAF41F10F807F0FCFC
0E0806F6F4ED04000DF909F9EA16FA00
090EE407F711EB0003E5060D10050715
1314040AFBFC02FFFF0205FBE600F61C
D7C6E0271AE9402408F5FAEA1105FF47
D897FDDB112F6D06E4F4F7E621FF132C
03160525EEE10CDF2E202BFBE12D1FFF
E01BE7CC3F04CE02DA089A40E6E9FA17
17F908F914EBB626E780FDF8E90EC714
041F0AE218EA08C1061040355103CEED
04D9D5EE971C431E0DF336A235F55643
1110F01314E3ECF410FEF5F128FDFA05
FD7BE3EB13DEE7110ADD4218D8CABD0B
024CFDCDEFF1DCF1F7EBF2F7F704D6F9
E050F530E601DE20BEE7FE2307F207DF
D124F6F20B05E2FF1420F8F513D0E4D6
DE0647E004FEEB24050E19F7DFF5C2F5
FB05EC00FD10EEF20025FBFEFAF4F9F1
2DF302EC040616FB12D20DE3DD1703F9
1EF8E8FAFEF0FB0E1803FDE3E0220AD5
4FC5A7EA2FE6CADC03FBCD39F7C645E3
CDE37FE5C4EF20DE4CFF03150FD941FA
080A070632F9F6F2380DD0EA13FFF01F
10A31EBF18E026D22DCCF2F1E919D019
37FFF3D1F905E21E0FDAE4ECECC502F3
F0ECCEDEF629C7D121910219D6E597F4
C3CDFB341D38001C9DFAED22C8C60007
F90AF7F309C70416DB1B07F80ED9E402
EBEA0816F8F21AE7E9080BFA101225ED
D8FFF70FFDF712CCF3F3EDF4160343ED
070BEF1A1CEAFED816E21B2FDF1A0FED
0701FCEF0AF5FAE3FD08061BFA0DF108
03D8EF10C127F200F0E003FB17F438EC
FBF901F70EFFF908FF1619FE1104F10A
0A0904FEFFF50FF813F803FFD1F804F2
010101020503F800F017F511F1F6EEF3
F2AFF604E2DEF8CEB516074B112CB02A
451C02D7F117DC17E5F90438D0D3DCE8
0BE41A112D3EBFE32F18FEE811053EF6
FED3C7220A8D08F1D435EB5B12D10753
E0E648E416E9F5CA0A05F0E9F526EB04
CF07F60C50B1E74928C7EE092350D438
C4D1FCC0DCEBFD1BE51E8B09ADEBFF97
06018000F4DB16271EE316F117193033
C9FCE8267F0FF32AE8B73505E8E88CE6
FBFD11E124E4F4F801EEF71CF9E102FF
E3CE222223260B07FD20F6ED08E5D11D
12008008082010F316F7E4FB012E29DB
F227301BDE0712E3F8160CF323E2FA17
FEEFFAFA091602F9FDFEF8FEFFFE0F0B
04F6CA05FF09090710FE0DF30BF22D14
F3E419F0E4F6F50B0811FF0EFCE10BFE
96B3DD2B19F123FFE6ED0BC5EA1A2416
C0C9BCF00A0354DB100AF2F92E11120F
2E053E093F3164E7EA7FE82438C531E0
FCEC56FA4BB31DBB9A0304071BCAAAE0
F10431F1192A12F6182B18F805D375F7
0BED1907D800ECE11036F922EDED15D4
E3BB5624F804EADE3330DD1DF2D8B5D5
032B2D23E2F21B0CF0290AD413E16B1F
EB0BE4F8E2D704ED041D00EC2D18EF0F
117FCB2937F8BC01DB05DEE90AED9AFE
123E1FF75BD0EAFDFBCBBCED1E212114
6A0C3AE5ED07BFFFFFE126000055E9EF
800148FE3117DE11FB98FB052DEBD7DA
500C0F13FC0906F1F4E0060A11127F0A
BF32E900CFFBCCE61F54030406AF7FE8
3133F5FB0F090FED107FFF0815FFBEE0
7F343BE8694580E3F64A1FFFD9DCB2D9
DF03424CE41D1FE6E4FED3010B00EEF3
DAFEF60DF120E4FDD5E7C8EFF700E3F6
141613FCFC2E15CB18DBCEE719F4520F
E1FD02FBE0D7E90607111521FC16EF01
1BE117000DF1FD25E91B6CA61B31F20F
24BB05B5E893BD24D2DBF1FAF4F3DAD2
BF1BFD2D640AB90E15E71C090A07A4F0
DFECEF0D11F3211CCEF604F8EA2A0819
DBA8F73F0EF814FFF9024219E3101B15
B7F4EA3403D6F83AF0E3C928F0F50D06
32E1F4E630F3E626F6A81BCCCF302409
201FD5F6A3E5EDFAF3E634F6E01ECCF4
0F06060B0401FFF00205EF17100A03FF
000600E23BE9FE06FA07181FFD040C14
01F312DF0EF81407ED45120AE61203F8
C7CD13E11ADE05DCA5CEFBF384E75AFA
F034EFF75CFBC80713C4DBE3E1CAEF08
F415F1F1011927F5040DD92617EEE3F9
302803FFA039E4631DDD535CE480F3FA
E51FEED9F4DBF20A020511040926EC05
2102D8F0169DB9D529FAEBE2F5E4E9A4
C07DC3FDF2FDFB111FC7C3DBFFF54DEB
F6F1F71E09261FE509F020C3F3EF090A
1E3E06223935EFFDD50847D7EF1AF32B
10FD21DF30F603CC0417F11AEBF906E8
094D1123F107D1E820FE1FEB26FA2524
06F90900F9E1DEFEFDEEFCFD122219F6
D90D0C06FB0008F3270BFF302ECDFB1F
F8FBFC0809020D0B0F0105FC03F5F90F
0D0D11F5F7F5FF10F9FB11FFF8F8FBFF
EF120201FB0610FE01081DFB05F0F619
DF96FCF4C6D90406ED0E05EE0D1B1D0D
E8B6FBEDEEDE0402DB09ECFA0F0E07B2
F914EF021B160A19F113ED12372F2AE9
050143E40552CE09F2F5CE21CCFCEBF1
1BE2F00A1CFC0F12040AFDEAFA4210FA
E8C8BBBCF214D627B0C9F1F7F4DDF7F6
2014E81ED0D20980B380C97DA8392539
E668F532230DF8091DED1F5F2F0B10EE
1117F7ECDE07EDD50D05F124FCFCFF03
2D1B15110A01F7F1E2E108E6E7E5DE06
80F502073818D40F2DEA02FFF51BEC0D
D122FCCB010610052FF90406F8F2F91C
070E17FD12F619F6E5DBF406160C0614
EAFC04F50AFF02F0FC10F80B01F40404
140D0FF9040EF6F403FAF0F7F218E2F3
E7F8071BFDF8FB0300050201F9EB26F8
2CD8110538E1E6002BFEEF27FDE6D6D6
E6E2F0E60B651D031AF3050413F7FE0E
07D6F9E923FE0FDB13EE0F16E120F0F0
23F5BCE21AEBFD3CFFEED52221CCE0F7
0FEB06F5FC15250D0C03F7F00E19F0FD
000F29DD3EE73DF5E9F510CD45EC1105
C76997DAEAC7F3ED092B6D02F9FCAB17
1A1D0E0D1929101AEFE2140410F4DEE2
FD0E0908E9EA0BDCFCFBF5C50EFEF7EC
DAAFE30CE00510012BEF1ABE14EB1D2A
FD54093E02DAE40507E4D91628BA0CEB
EC0105F0FBFB17FC07F30B0407EE0011
4CEAFA01F8E4E2050E03F3F0D3C8EE02
040B09F4FF0202E40A1606F8F2EF04FB
F70F060EE9F801F0FD10F7EDEF020A01
F0060107F7E5F5051609070A1A020213
F6C5FF1BDFDF1912FAF307C5F9DA0EF7
2EEC19C231EE07BC04EF023CE2D804E4
A1E509E0E9E7EA0B16DA2BED80A0261D
6B3ACBB6BB7FE94745D8FC2B0DE847CF
E1E7F580154CB8FBEEE6E3D40CD326E1
EBFE088028FC521316E80BF0B3F0ECE9
84EBFA1AAAA622BB7F2BCA0FF1E814FC
EFFE0223F3B53623EAD406E4F98042D5
FEED1E5FA414FAE62FDF08E3037FE5FC
6572740817B81A1C507FFBEC0BE70912
416A0A647F9B13F55F4F44D17412C2D0
B840B29F5F788027E92DB1A53D2C1896
087FB9A1FE0AD1A1AFCCE31B5C36FACE
F4E0F3083D57AA51A9459EBF4423806B
31159F12350CECD4F9CB700EEECB7F20
D094F6948064F24ABEB7C0E312E73235
C153C5D2E42EEFDE20802811F9CF1BC1
C0C7B9D6E0800F0D020AE90FEEFF08F1
D7ED0FEEECD904DB34042216F73BEA1D
F3FEF50AF80B030903FD0931FF04E311
FD10FBFF04FB000CF3FEF404030CEE04
16F5EA0514200018E3F5001006EF2009
00000000000000000000000000000000
00000000000000000000000000000000
00000000000000000000000000000000
00000000000000000000000000000000
00000000000000000000000000000000
00000000000000000000000000000000
00000000000000000000000000000000
00000000000000000000000000000000
00000000000000000000000000000000
00000000000000000000000000000000
00000000000000000000000000000000
00000000000000000000000000000000
140F0AE3B8DC04DC55FEFAE3061516C7
29EF36DCE20E09B5420404DFFB04F1FB
0826C40F17FE0640D005F4F8F7EC1E0B
400EC61618141041AC0BE708F5E2D8CC
00000000000000000000000000000000
00000000000000000000000000000000
00000000000000000000000000000000
00000000000000000000000000000000
00000000000000000000000000000000
00000000000000000000000000000000
00000000000000000000000000000000
00000000000000000000000000000000
00000000000000000000000000000000
00000000000000000000000000000000
00000000000000000000000000000000
00000000000000000000000000000000
1D0506FB0E13EEF60BFDDB1BFF120C03
1D0014F2FD12F6E81DFEDAFA04EDECFB
0204F903FBF3FF05F7FDF70700FB1F06
2401DD0610190724ED04E502F907F5D6
00000000000000000000000000000000
00000000000000000000000000000000
00000000000000000000000000000000
00000000000000000000000000000000
00000000000000000000000000000000
00000000000000000000000000000000
00000000000000000000000000000000
00000000000000000000000000000000
00000000000000000000000000000000
00000000000000000000000000000000
00000000000000000000000000000000
00000000000000000000000000000000
D2EC30E749E4EDC6F712C943FF0908C8
0A13BF1DDEDB0454F4FF0503F91B000F
F0F823EB09FFF9D31EFD08F801FB01E7
D71AB615BC000A57F3010611FAFDF100
00000000000000000000000000000000
00000000000000000000000000000000
00000000000000000000000000000000
00000000000000000000000000000000
00000000000000000000000000000000
00000000000000000000000000000000
00000000000000000000000000000000
00000000000000000000000000000000
00000000000000000000000000000000
00000000000000000000000000000000
00000000000000000000000000000000
00000000000000000000000000000000
1602B2538E2BDE44573D08FCBCE8D924
EA29342F7F0A23B380290BE9E0001D0D
170B101080070AFC30D901042813F007
FF006DF14C220880FCB0F91A49001614
00000000000000000000000000000000
00000000000000000000000000000000
00000000000000000000000000000000
00000000000000000000000000000000
00000000000000000000000000000000
00000000000000000000000000000000
00000000000000000000000000000000
00000000000000000000000000000000
00000000000000000000000000000000
00000000000000000000000000000000
00000000000000000000000000000000
00000000000000000000000000000000
EBE3E21B561C132380F814E40EC2FC52
E10C020A21EA01FD3D080802FFF613FE
1BFEF0FF29F4F60CCBFE05F501FEFDEA
23E84003C43524C511FE241810E7EAF3
00000000000000000000000000000000
00000000000000000000000000000000
00000000000000000000000000000000
00000000000000000000000000000000
00000000000000000000000000000000
00000000000000000000000000000000
00000000000000000000000000000000
00000000000000000000000000000000
00000000000000000000000000000000
00000000000000000000000000000000
00000000000000000000000000000000
00000000000000000000000000000000
F5D301E5EA36F00319E9FA2C0E270404
EF0BE7F6FC13071BF6050331FD0E3523
FCED12F005E0F6ED1007EDDBFA0B0709
06D2D7FDF2EE092D18FFEB13FF270310
00000000000000000000000000000000
00000000000000000000000000000000
00000000000000000000000000000000
00000000000000000000000000000000
00000000000000000000000000000000
00000000000000000000000000000000
00000000000000000000000000000000
00000000000000000000000000000000
00000000000000000000000000000000
00000000000000000000000000000000
00000000000000000000000000000000
00000000000000000000000000000000
40CBDCE4E419264FF28B170B6F212DCD
FFF9ECF4E5FE0D1BCFAC06054516E5ED
F101F7EFF5FEF30354220726DAFB2C05
F6EB42F6EACB36AACD3408FCCAC8CF14
00000000000000000000000000000000
00000000000000000000000000000000
00000000000000000000000000000000
00000000000000000000000000000000
00000000000000000000000000000000
00000000000000000000000000000000
00000000000000000000000000000000
00000000000000000000000000000000
00000000000000000000000000000000
00000000000000000000000000000000
00000000000000000000000000000000
00000000000000000000000000000000
090CF905EA000400C80DE8FFF2CEE502
E0DF0501F9E905FB02F6E70D02FBCFF6
1C11050A04F60BFBE101F30B03090221
F7E506F74DF0BDEC7913FDDEE90C09FA
00000000000000000000000000000000
00000000000000000000000000000000
00000000000000000000000000000000
00000000000000000000000000000000
00000000000000000000000000000000
00000000000000000000000000000000
00000000000000000000000000000000
00000000000000000000000000000000
00000000000000000000000000000000
00000000000000000000000000000000
00000000000000000000000000000000
00000000000000000000000000000000
