ffdc
0014
0007
fffb
003a
ffff
ff94
0020
ffb8
002d
fff5
002c
fff6
fffb
012e
0039
0003
fec2
fede
ffb7
00ab
007a
ffe4
ffe6
fe44
0133
0071
ff75
ff59
ffa2
0059
0024
ffe8
0007
0015
001f
ffde
0026
0029
fff7
0000
ffd1
fffd
004b
0021
0009
ffe3
ffa9
fffd
0016
ffff
ffc9
0009
0009
fff3
fffb
ff5f
ffc6
ffce
feba
0018
ffff
fffb
002b
fff8
009a
fffe
fff9
ffda
ffea
fffe
ffe7
fffc
ffed
fff5
0007
fffe
0001
0008
0038
ffe0
ffc8
0060
ffd8
ffd5
fff7
003a
0016
000d
0047
0038
000c
ffff
0030
fff1
0003
ffe1
fffa
ffe0
0003
fff0
ffe7
ffce
ffe0
ffa5
001a
fff9
fff1
fffe
0068
ffff
ffff
0001
0000
0001
0000
0000
0000
0000
0000
0000
0000
0000
0000
0000
0000
0000
0000
