270399F70C1D36093FDADE0D004820F6
CD2BF522A5DC4C0FFDE319ED10C8F333
EAEC0212122328EF0601FEF3FAF607F0
21160ADDFBF40C317FC0CEF6C639D70B
E0322DFC6F3FF0B822942B3EF8F0F556
020604DFDEBADCE415EA191AEF1701F3
264522F211F10834F5ED05FFE4F8F709
F61E1608EBCCDBDF080C1EEEF6DEF62B
CCF0F9C860D201FEF1FBFF280F0508F0
06E2A911F6FF000B04E710150E1E1EF5
1CE616070AEA0EEAF41F10F807F0FCFC
0E0806F6F4ED04000DF909F9EA16FA00
090EE407F711EB0003E5060D10050715
1314040AFBFC02FFFF0205FBE600F61C
D7C6E0271AE9402408F5FAEA1105FF47
D897FDDB112F6D06E4F4F7E621FF132C
03160525EEE10CDF2E202BFBE12D1FFF
E01BE7CC3F04CE02DA089A40E6E9FA17
17F908F914EBB626E780FDF8E90EC714
041F0AE218EA08C1061040355103CEED
04D9D5EE971C431E0DF336A235F55643
1110F01314E3ECF410FEF5F128FDFA05
FD7BE3EB13DEE7110ADD4218D8CABD0B
024CFDCDEFF1DCF1F7EBF2F7F704D6F9
E050F530E601DE20BEE7FE2307F207DF
D124F6F20B05E2FF1420F8F513D0E4D6
DE0647E004FEEB24050E19F7DFF5C2F5
FB05EC00FD10EEF20025FBFEFAF4F9F1
2DF302EC040616FB12D20DE3DD1703F9
1EF8E8FAFEF0FB0E1803FDE3E0220AD5
4FC5A7EA2FE6CADC03FBCD39F7C645E3
CDE37FE5C4EF20DE4CFF03150FD941FA
080A070632F9F6F2380DD0EA13FFF01F
10A31EBF18E026D22DCCF2F1E919D019
37FFF3D1F905E21E0FDAE4ECECC502F3
F0ECCEDEF629C7D121910219D6E597F4
C3CDFB341D38001C9DFAED22C8C60007
F90AF7F309C70416DB1B07F80ED9E402
EBEA0816F8F21AE7E9080BFA101225ED
D8FFF70FFDF712CCF3F3EDF4160343ED
070BEF1A1CEAFED816E21B2FDF1A0FED
0701FCEF0AF5FAE3FD08061BFA0DF108
03D8EF10C127F200F0E003FB17F438EC
FBF901F70EFFF908FF1619FE1104F10A
0A0904FEFFF50FF813F803FFD1F804F2
010101020503F800F017F511F1F6EEF3
F2AFF604E2DEF8CEB516074B112CB02A
451C02D7F117DC17E5F90438D0D3DCE8
0BE41A112D3EBFE32F18FEE811053EF6
FED3C7220A8D08F1D435EB5B12D10753
E0E648E416E9F5CA0A05F0E9F526EB04
CF07F60C50B1E74928C7EE092350D438
C4D1FCC0DCEBFD1BE51E8B09ADEBFF97
06018000F4DB16271EE316F117193033
C9FCE8267F0FF32AE8B73505E8E88CE6
FBFD11E124E4F4F801EEF71CF9E102FF
E3CE222223260B07FD20F6ED08E5D11D
12008008082010F316F7E4FB012E29DB
F227301BDE0712E3F8160CF323E2FA17
FEEFFAFA091602F9FDFEF8FEFFFE0F0B
04F6CA05FF09090710FE0DF30BF22D14
F3E419F0E4F6F50B0811FF0EFCE10BFE
96B3DD2B19F123FFE6ED0BC5EA1A2416
C0C9BCF00A0354DB100AF2F92E11120F
2E053E093F3164E7EA7FE82438C531E0
FCEC56FA4BB31DBB9A0304071BCAAAE0
F10431F1192A12F6182B18F805D375F7
0BED1907D800ECE11036F922EDED15D4
E3BB5624F804EADE3330DD1DF2D8B5D5
032B2D23E2F21B0CF0290AD413E16B1F
EB0BE4F8E2D704ED041D00EC2D18EF0F
117FCB2937F8BC01DB05DEE90AED9AFE
123E1FF75BD0EAFDFBCBBCED1E212114
6A0C3AE5ED07BFFFFFE126000055E9EF
800148FE3117DE11FB98FB052DEBD7DA
500C0F13FC0906F1F4E0060A11127F0A
BF32E900CFFBCCE61F54030406AF7FE8
3133F5FB0F090FED107FFF0815FFBEE0
7F343BE8694580E3F64A1FFFD9DCB2D9
DF03424CE41D1FE6E4FED3010B00EEF3
DAFEF60DF120E4FDD5E7C8EFF700E3F6
141613FCFC2E15CB18DBCEE719F4520F
E1FD02FBE0D7E90607111521FC16EF01
1BE117000DF1FD25E91B6CA61B31F20F
24BB05B5E893BD24D2DBF1FAF4F3DAD2
BF1BFD2D640AB90E15E71C090A07A4F0
DFECEF0D11F3211CCEF604F8EA2A0819
DBA8F73F0EF814FFF9024219E3101B15
B7F4EA3403D6F83AF0E3C928F0F50D06
32E1F4E630F3E626F6A81BCCCF302409
201FD5F6A3E5EDFAF3E634F6E01ECCF4
0F06060B0401FFF00205EF17100A03FF
000600E23BE9FE06FA07181FFD040C14
01F312DF0EF81407ED45120AE61203F8
C7CD13E11ADE05DCA5CEFBF384E75AFA
F034EFF75CFBC80713C4DBE3E1CAEF08
F415F1F1011927F5040DD92617EEE3F9
302803FFA039E4631DDD535CE480F3FA
E51FEED9F4DBF20A020511040926EC05
2102D8F0169DB9D529FAEBE2F5E4E9A4
C07DC3FDF2FDFB111FC7C3DBFFF54DEB
F6F1F71E09261FE509F020C3F3EF090A
1E3E06223935EFFDD50847D7EF1AF32B
10FD21DF30F603CC0417F11AEBF906E8
094D1123F107D1E820FE1FEB26FA2524
06F90900F9E1DEFEFDEEFCFD122219F6
D90D0C06FB0008F3270BFF302ECDFB1F
F8FBFC0809020D0B0F0105FC03F5F90F
0D0D11F5F7F5FF10F9FB11FFF8F8FBFF
EF120201FB0610FE01081DFB05F0F619
DF96FCF4C6D90406ED0E05EE0D1B1D0D
E8B6FBEDEEDE0402DB09ECFA0F0E07B2
F914EF021B160A19F113ED12372F2AE9
050143E40552CE09F2F5CE21CCFCEBF1
1BE2F00A1CFC0F12040AFDEAFA4210FA
E8C8BBBCF214D627B0C9F1F7F4DDF7F6
2014E81ED0D20980B380C97DA8392539
E668F532230DF8091DED1F5F2F0B10EE
1117F7ECDE07EDD50D05F124FCFCFF03
2D1B15110A01F7F1E2E108E6E7E5DE06
80F502073818D40F2DEA02FFF51BEC0D
D122FCCB010610052FF90406F8F2F91C
070E17FD12F619F6E5DBF406160C0614
EAFC04F50AFF02F0FC10F80B01F40404
140D0FF9040EF6F403FAF0F7F218E2F3
E7F8071BFDF8FB0300050201F9EB26F8
2CD8110538E1E6002BFEEF27FDE6D6D6
E6E2F0E60B651D031AF3050413F7FE0E
07D6F9E923FE0FDB13EE0F16E120F0F0
23F5BCE21AEBFD3CFFEED52221CCE0F7
0FEB06F5FC15250D0C03F7F00E19F0FD
000F29DD3EE73DF5E9F510CD45EC1105
C76997DAEAC7F3ED092B6D02F9FCAB17
1A1D0E0D1929101AEFE2140410F4DEE2
FD0E0908E9EA0BDCFCFBF5C50EFEF7EC
DAAFE30CE00510012BEF1ABE14EB1D2A
FD54093E02DAE40507E4D91628BA0CEB
EC0105F0FBFB17FC07F30B0407EE0011
4CEAFA01F8E4E2050E03F3F0D3C8EE02
040B09F4FF0202E40A1606F8F2EF04FB
F70F060EE9F801F0FD10F7EDEF020A01
F0060107F7E5F5051609070A1A020213
F6C5FF1BDFDF1912FAF307C5F9DA0EF7
2EEC19C231EE07BC04EF023CE2D804E4
