A1E509E0E9E7EA0B16DA2BED80A0261D
6B3ACBB6BB7FE94745D8FC2B0DE847CF
E1E7F580154CB8FBEEE6E3D40CD326E1
EBFE088028FC521316E80BF0B3F0ECE9
84EBFA1AAAA622BB7F2BCA0FF1E814FC
EFFE0223F3B53623EAD406E4F98042D5
FEED1E5FA414FAE62FDF08E3037FE5FC
6572740817B81A1C507FFBEC0BE70912
416A0A647F9B13F55F4F44D17412C2D0
B840B29F5F788027E92DB1A53D2C1896
087FB9A1FE0AD1A1AFCCE31B5C36FACE
F4E0F3083D57AA51A9459EBF4423806B
31159F12350CECD4F9CB700EEECB7F20
D094F6948064F24ABEB7C0E312E73235
C153C5D2E42EEFDE20802811F9CF1BC1
C0C7B9D6E0800F0D020AE90FEEFF08F1
