290ADCD6F4E102EFEE12D039CBC50137
1EF6ECD1EF1222F6F108F5FFD3F3FCD8
C01DEF80F8E2E2A282EBCFB0DC23FC04
002EE00B23E91025FEE7170E0602FB00
28C53831EE1EB80823132636D92413F2
CF02201B060507FD1EEEF3F30F22E910
B20FF816D0A432DC020319F3E746ECF1
E70E0CF1E0F1D910EE12CF2B11FBEF1A
0D2011DB26201A322AEBF7E1281CD21B
412F63E4052F241EFC5CF2FD050C2CA8
EE1FE3FE388DCFF2CBE90B28FD1D05C6
2E0404E1240E2AEE1A02FEEE1B120F35
26BC1905D2E0ECDC0BE4DA2A3AFE0911
12542E1D5705E71FE5E9E8E43B121BE8
E3DEDAEA07B2F223FCF2EFE2F401E1DE
1812FDF50AFC090DFDFFF0EEEA21160A
19CE26FC1B3303DCFBEAF91FFCDB36FD
EEDAF8EDE9EB18E02F09F70CD9EFE8F5
02A9206CBB1E05CB1EC0A1EFB714E317
FEF21808D9B0BE06FA35C6F908EE03E5
DDB0FDFDEF0FDEE240ECD5FBCB110A08
15F8171266111D2313F64110C9FB1309
093CDCF1C715CAEA0BE7DEDEEDEAD309
0CFCEB00F3F5D922F4090C1A08F2EFE3
4DFFAF10257F050102BC6AFBA7BFF1F5
CDBE322702FF0D4D17E33B0D1DEA01C4
12C0FB1B1315DB4B09C8C91E143619E5
F1BE20BAF62339CFF8232EF0BA231B19
41B8C73ED17F4F251E142E18A7D1F9EB
E8C21F1CD2DE08EEBE1023C0A4E4EDFA
F7CDBB8744801EDF070BD6EDF92EDFFF
061326F1EDF80AEB013708EEF31DEE04
96E17FBBDA3707013B2C021FF9ED3B2F
0CED0BF809E1F705FB091CF21212D8E9
190E192F06F800CB1FF1F9CDD9ED0E3D
02F215C9F2321902240FFBFD2204EE0B
642313DEEB1528E9A7DDD8EFE923E203
F616FA0EF3E7E4130ADEE4DECDC4FD19
0217E50EC604D4F70DEC3FDECEEC290D
F42BFEF2021CF504FE04F41EFEE4E411
07FBEBE00AF222240DF6F0FFFFEBCD0A
0920FA0D22CDFB23EFC5EA05A7E00628
FF420727FC2742C8103CBB2D0DF9C8CC
E9DEFDEE210F23F30700E5FF1E1033DA
F3051D07E9B531031D1C55460E11EEFD
0117DF1BE20DEB06D50C0B0520F4F80A
DEFBF3D5E51937FC03EE2E3DD03306EF
1CFD021EFA0AF41408FEF9F7F0F71BF9
D101F2330AE9D8E7E4214108242918D7
B6FE0D33FE02D123EA3FFBF9DAE2D5E7
1134E2CAE1C1D5CA1938C0B667EDD632
1E41FCED0C2C3C0C191852FD10E202F9
F921ADE8ED270429E2E16051EC2BA1D4
FE151A11F420241FDC2C1ADFA9E92D12
DBB8CFC820B7DFD7C3D7D722D241F740
F708F2EA2922F3042E3A091B234EFCE9
2EBE0E01CCB91B29EFF2F605192B070C
F22E0213372B21EF067F08EA5A1E0814
0A392109AA2B5EFDDC23071430330FE4
18CCE02BE10A090CEDEA1BE7F10247F8
DBD0E30BB5B415A401B5BE17EAE814FD
53FE0EF0E63C2CDCDB1D28F91E402902
125105FFFEFD20E3D90C2602CAF0111B
F12EDD212C0A02FB13051CEF08FD020D
F6E2E309DF32EEFB110C244254412CF1
CAEE062766D9D647E60D91100CF90DED
BCC9445701E0FC289D38B41A0EF5D62F
ABF0F620F3B3A8E7143A80E60301F3F1
FCD0141E80B3186906175B3002D8BC25
BDED1D2EF3D0193C000D1EFD800817F3
D5ECD019C4C229EA080E38033A271612
5740610FCE394DAADD3825C94C6CC511
FAC2005D27B0D91FFA23B6F219F6DBFC
D900E6FAE6EC1813F443F51016FF3D47
7FDD60FEEB23E74BB934D8373B662CE9
C207242E5351B97F19F0BB281DD43FFE
D7FCF52B6729072CE94ED93D1A23D0D0
D20B0C5738A1ED1EF827BF0F11E7CE0F
4714E1E9FA531FE40007FF27C904D819
7F2D170EE2410917180F711E3237450B
BFF0F3E8F603D303C82318D1C2DBE3CA
02E51006F0E725EA0AF527F306021C1F
0EE2100C325CF5230BDD18DD26341EF1
15CCFAD7DD2BD9FE31E60D22E6FFFA08
C8FACB16CCF6BEEC151CDCDAF21F3FF3
E952000A221C023C219F1013F0ECF824
18F2B041021220E51200CEE2E4F105E7
00ED2920E713FEE7FD2D0FEE10EECE04
F8040AF5FBE42908FEF50004FD06F404
D0E5CCE87B8D15D7FD020007FD0215D2
F2BDE8050EDECF09283FB5C32F09D7EB
EB060807D7121217FCEA00F40C090915
04280E47E005D5FF4603B4F8A82D04BF
FAF6F4DECBF71CF8DF050FDBD626EDFD
E7FE09FF28DAE6150E1D08F1F41524F7
FE29E90D30EFFD130FD8F0160CF5E305
46E323EFDE54B05BFB16D8C01A210A60
E636F71217FB19DCDB1216013E121304
F519DE6BB0CCF005260717650B030E04
1C161AF2FAE6FF0504FC0D0EF1FCCB30
D9E9DBF2FC611A08F2B20BBE08DE3CDF
DEF1DC2121FD08FCE707EE1F0EF3D3E5
0A2080CDAAE2FAF2F006CAF69EF0DDDC
37C5EEEC36C2C8F7F71BF142E1F9C71E
EF3CEEE5CAFFF6D8F5FDD6043A2303E7
2714D1F72E2FE01F26120C16380E0823
EE2AA74EE5170AD6EA14F05E7402F0D7
4B0005170FFDD906100DFCF41606ECD7
47371EA1B4D3E609FD37C411DA1B1A25
0F1BEF0E080964C9FFD107E325CE7FE4
0DE9160F03F9080DE9E6D1EDE807DD06
DCCF14090803E90D041002EAF714E806
242C29203DF11BEBD7E9F812FBE5E143
247F28D2E3571E1313CF4DFC261518F3
1F0235CED805EBC5160929EADEC3F7C5
EE2302EDDE0BF7BEEFECFCF8E8FC25E8
4D01D702B3F10C0111E21142D4181DFC
CE3D05E43E2026392A0BF9FA0405CB13
2BE12306152F0960E6323B3505A861AF
D3BA9F453AA9AFEC06F9FB25D4E27F14
F9F85F21CA2EDCA2FC30A8CFC23EE6FC
F825FB160236F213FA49D7211EFCEAEB
133056F682593EC51E15AF0327EF5C0C
B73BFB22AA13F801D5F73B18CEC99B06
E4DF17EF011A06CCE90F1ADF071CCDB3
CEC309FCD9070321F50FFDD6C80AF8FC
1CDBD61A3FEDB6080422080132E7BDDF
FB0907011D0D11FC0D0C1EFF06FC3E06
DB04E9FA01BFEB1918571B3E9A16FD0D
F91304E7CE07EE25E2E31201E6E9FCD5
0D0485472D92161731D6311654EAFF34
0A04EADBE7FEEF12FFCD1F1A2709FAF7
D4C6EC13C3F8F2C41B173A0BCC06AEF3
120A23EC0CEA101221FEEC18D909C5FC
12E4DE2F32F475F007D4F8E1D349EE15
DA0DE81541FD04EBE302DC40E7E90FEB
F9133DB2F501FBF70F02FDF4253028FD
BADFDB1706C1C2EB2406F7F32008DC15
43CD08D423C30CC20D4E0ED80308F6F6
17FC1A04060C1704FEF323EE2C03CBF3
07EF57FEEAF5F92101EC3BCAF9EAFDF7
1C19EE0E0A0E3C2819D7E0E5DAFCFB15
FBE9F7EC38F9CF16E1FF0BDEE40A14E6
CFF019FF040D160717EF11DBEA1AFE05
