00000000000000F5B13E288005DFFD00
00000000000000F01780A149C2A6C93B
00000000000000C07CF2757F36B2F5ED
0000000000000080A122A2B72412339F
00000000000000EEE5FBFD7FED142BF5
00000000000000F507017F86FB00FE02
00000000000000F3EAF211D4E4077F15
0000000000000003F2F6210227EA80EA
00000000000000F080D362A8F434E8B5
00000000000000515A60D67F26AF64CC
000000000000000249E780C8EA6BED01
00000000000000252339B6B9C9EB8011
000000000000005AED8980A6D40AAF38
0000000000000037E3E280E2F608EBD1
00000000000000EC32FA03801E1650EE
000000000000000D8004FC1A06F8FD05
