DF2C0500DD32152B1F2FB144E8F2AC3C
01E80D14EA100DF130F0CF11EC04312D
FD01F8F422E3E8CE0B3197BBEE2DF903
2CDEE4FCCEE8DDFAFD06310A2AF511F2
1929F9F0F9E81703ECF6DF001CFA0615
1B07F6D7D1D70914DB2DECE822FE15FB
3FE5DAE5CDF3CADEEDF011E109A710CF
CDFCECE180CD23BBDACDEA041101B03A
3F2EE5BC50ECEA09FEEF3D01FAF43C34
06F81111800DD9E32AED0ACCF2D9E91C
AA0FFA0907A2C0E1E4FCEEBAFAB234EA
3514F1170305E11DF6F111F6E3C4F6FB
DE03D1DB93E135343809A9FB19D3DDE8
E7FDEAF1FFD7F81A03F20ADE28EB2D03
FB08FF08F2FCFB09F812FC03070E0CEE
1CEAE8FDDFFD0B06F9DDE91DFA04F50C
3F01D048193E0721CEF01DE7C9F4DA16
02EBFBDBBAF4231B6207E002FFC8E9EC
C022F004BAA42826CCFFDBDD05FBF20A
3EC6580CA6C8931C7F35F5DB6AD84AFF
F634F23DD3484E1FADEDD711BF038EFA
25D228012927F2E2D7EFB6C7080E7FC6
F02EDE17D6D91BD23F80B6CC055D90C9
BD1F29EAB58C1932B91811360ADE21A7
F5F3D6C902E0D0F6F4E8E336F21D3111
DBDAF816E14ADC395A1063F2E8EDEC12
EACCEF19E71CE402060CC65100FAEE05
1A03F4EF0411E1170DECE1DBEEE82E30
3022EB2F51DCF1C602D6B116D9115CD2
FF0D301E7F1ACED50502D7FA2528420E
0B090205201AFCEFEF16E91B0FFB2608
FC1D272EFA4C06B7BCE0DA0C03F632FB
FC01272C111305FDDBBE47F7E5F6F31D
06D4E605F6DA1D0820FC1AD0FEDC4818
020AD9F7ECD1FE2D0109030516C8BEFE
D8042E1A29F61301C71BE70EF92CEB08
F015C515200C13F8F2D00612E912E521
05FDDDE91D140CE5CCCD3240F8F8FB26
F710101E2925D9A62AEB23F92E1C053E
A84BE511D1D4F711C95CF9323917DDD2
F0EFE50F07FC18FA06EE1618EC2EFC3C
08E909C9F3D92D44B6FD0A15D914F2EB
CCEEC1121CA3F92D112BD3C8C9F6ACDF
1EF7E10214F7E20E0218F2E4FA0FFD2C
FA211EBE4813EDF4141AEBE0C6E957D8
FEFD0403E0EAE31918D61ECB0622121B
FF0001F9F400F5FEFEF614F103070713
F5051A10E20BF4EF10023D19E41D01ED
E01F0B01F53DF6104227CFC3F9F1E80B
01FAE7EB13110CE030F2D7E1FEF2182E
7BE4B4DFD02B4ED1110227F82C2F0AEB
C20CF010241433021AF0E90A1D130C1A
FB2BD7E3F6F2F707EFEAF70C4B190E0A
F9ECFC07F912D3DE1418FC0304DCE01D
C0FBF64021F0C5DECD06062F1554DEFB
563D23110E162BEB6843DC74D6029BEB
57F0B3E2CAF4DAFD39F20304A235BBDF
DAEF303F21103A2EE0E0AC2C1623EE13
E7FEC23FBFD10C0B7DF3C02BC5F00C2C
2501431AE3E0DCFE29F0D72C231A1E11
4F0E3D112BC016E08D022BF6B31B5DF2
2AE92515141C15F9D5EC73D9F7F9E3F3
F10A12082300F70400080310F0F9FCEF
1A1928F7ABF3E725180CD5FBE8E7F32D
A10309387F1A17DBFF1E27E50D151007
E61ADDF30BDF02C4DEF735DE03E71011
DD127FFB18B72A16F9203212E0162915
5B083DEE2D55F7CA51F82240E21ED3E7
B41DFB5C78FC0F09E8D11D18680BDB07
62D8FB13A7E99ECB2E36CE10DBF0E31C
ADD20A26CA32E1FBD2E013E6D521F6EC
E1DEF0CC9E003C0C6EE4EC48AB2DCEE5
E01E17E1BE511AFD1C093CE5FC34F21D
14D0F0F1F0DB25291A13E8ED220BF521
25C00A06FD38C04FEF66FBCB37D580F0
7F26D0179235F20656FAD111EA2A0DF3
E323E61AA9AB2319B739DADCD2C9FD34
E728F903D214C758ADE82DF559286137
7FF4F6E6A61DFC2307020CFA11060C13
CCBB37220D3D117F16092DE041E52AF2
0630D623FAC5FDE31DD6140DEFF71335
07311DE03FDDD603ADEEE30511FE7F13
F037042B4D031B020111DDD4FF10D313
B9F765FC3CF7E90E0BFD201938FFAA15
FEE1B41C260CE0F7FF21F8DE800D4101
06250303C6EEEAD50B0614350969041B
F84CB7B68EC90B2512091CF11402D302
02ED070F5F22AC244CE74F0F35B0B132
12F01F1501EDFA061206F3E7F00537F5
D705240FF0D7141B2241E431F911FB13
14BAA90C19001CA3EA43C107E2E20010
E61366F20FF2F1FC1B2405EEF3F4F905
0757FDFECDB83531F4F5D9D4EBB73113
04F634D7FB03DCF72C0030EC41FA0017
F10506EA21FEFEFD02F10B1F0A0B0D11
05F5F1F3FBEF2A05EEFB2D10F01847F0
12F101FE2F2109FE1B1CEBF606F9FB0F
08FC0508D105FB2E22EAF30CF1FA1108
170DE3F20B1C0A1C101F2B1D2CE4D6C9
F6F2E1F9FCEFFC1CEF0A41121BEF0518
1C09F00DDD0CD344FEEB09FA0A0FFAF1
F0EF2E0BD4E424E0120D0B080CCF041B
0ABFCB8B25942BF8E5F2FFE0F3DBC803
28FFF241D2E4FCF7FFCDC8253E1220F7
7F15D721A72A3EB73C0AB2A305C80DF0
F747F21FEE1EE7D0E2F6DFFA1A00D267
EDE5FFEAF1E6FED62A0442A1B55AC30A
E61C19F5E4E60804FE12D418DB080101
A33DFEDC11F0110E2714E2EDD1FD1738
F810FCF5F9ED052EF20D2AED0C03FCF1
02021519FCFB0313FCFD0801F1EB01DB
F21915FBF621F52721E0E72BE5EE04F9
ECDCEE37FDB4F0C6ED2DEE2015350406
FC3D24200ADC0B56C9CF0F23B711F1E6
FE1B4C08DDD0D818D1052EFAEA01220A
04E5455027E6EA1CF40AF4F8CBFBF409
F210D716C223F5AF13F9BC184AE10EDC
9745E1D1DA21BBF83EC7F2004DF0CA08
1008D006EED8BFFDEB23C5F8033524E7
6EDA09734B160405FD18D8A3CA38F4FE
36CD3506EBB435B2F436E2A5D643D817
E00B2203A5D012BE09CDDF1AED212346
10FF8A1B1E120F093525C6F11EEC2F29
7A0DF41C0F0A01FAFAFBF41808F61613
F21F006CD638FFBA29F43FE580F2ECFD
EFD92021000FF65A06170BF3CBFF03F1
17F1ED1B170EF629FDE5EF161DFF0AFB
2203BCC641230FEE081CDBFA5815ECE4
121EF0F3FFF603D5F807DEFD0A0FFA03
FE18F1D5B0F9DB6BEF12B82DC02B4F18
F20836280FD818E5E6F3FDDB14E6DB0D
18F31717FFF3051F0208C9E3DCC4F915
010BF50A15F000CDFC150019EFF12619
D5D5E6FDE410BBDDCB0AD915320FE8EC
11CC2FD2C50D640BF7BCF157E337C70E
0233EAD0221F6ADDFEB6B4C6E8C41523
FCF40EE4E2002A0BDC1FF50301FE1AFC
0330DAD62607F2F5D71E05FF2505C00A
D2E4E4F4DDFCE3041830BDB514FFD92A
130314D60FDBF702FBFCE80300FCF048
05DE18230E27CCECF8FFBEDCB31A010B
020C17EDF704F511F60CFADE1EE90927
F3FC0F0E05F0040700F2FE1600E50EFD
DDFE2408D81324180E3520EFDBFD0BE6
