FE10F6DB9EEAEAFF0E18E3DCEFD3F00B
FA0B040300F7F804FF040AFE01F912FD
E8342E69E91C1DEDD3EE2DCBE20754F2
3501E233000FEBF601E9FF2DAA02BCFB
1107EB2003BBF4100AEC29EBE3FE11FD
E7F1EAE3D1EE0903FF1ED7E7DA2B01C8
022B060D0AF9FEFC0500FD0A02E0E4FB
18DADCFF0AF906F1EEF7240B481AD1E1
E7CBECA43D3108F8A019EC4FDAFB091A
0904E80DF2F70808FD17F80DF7EB07E5
B2DEFD82D5DAD403E02F0005C85D3F3E
E924CFE30420FE27F8E5170BF1094725
E1F6BDE222FBA40ADE47EEBAB820B204
0F090000F807FE030600E7F7FAF1E50D
0935D6F2E90A12FA19031A00D9BF03E2
151BCC1719F3DF0606FBF31912FFB6E2
2BC9E71A1EE91DAFDB0CBE0E48C649F0
0B1800122BF3FBFC0AF9F0FEF2FDF5FF
D07F4B54F9C5E6FB17D5E80E9C2502E1
1AE6D1B81AD4170BD707FF0CAEDDE041
D127EEE1F9E203AA1DF1F01615D6070F
9F342E10E9F21DDAE7F5B6F830D30DD2
0A0D043C2CFA02D8F404F9D2CCFA0EFD
1EEE1608073307B612402EDFDF3930F3
CCE349C524C8DD37329505300B07B9A9
23E905E51BE0061B37FA1F0DD6CAE5FE
06FAD5AFC1BD0306C79E3704EAF52425
F1EC3DE6D0FC01F6EEE105DEF405DD01
030719F4C010E5F624DCCBD580C41602
FE041829EA0111FFF313F4E7FEFF170E
84120B3AD700F310161E02D047152B2D
ACD5599BCEF3EADBDAC608C00E3E3035
B50A3F6109243926030604F30F2615E6
F904000012F7F311F0EFF9F9FF16070C
21FF222205E9F528C8F6ECE2EC3327FF
2217E20CEBF6180FFDDAEBCCC109D00C
1FDDC0A8FF06CE9835D5DFE013E00F1F
800158FDE88E53E711D71FD3FF38FB74
07FCEBFFED0D0AF708F208F20418F405
F712D44DFC1E50171402CD1CE711310E
F8A4D002C0F64209D6AD30310EB81AE9
01EA100C0DFBD9280409EB1E21F5F202
18C62FE5E0E300C80EB113B3BCF9B2FA
F3FC0A0620FFF2C6F50A160B281D1516
E509D001B4FCFAC6D6F1C0E5181D2808
0204E9F70DF414DF0304F6D9010D1BF2
2DCEED10F2E20BCCFF230228E7F1FEF9
04FFFEF9D0F9223C1FEBF562FACCF4FC
DEEC1113125228F3FDDBC5EE2437B206
F809F8EDF523E90C0A0BEDFE0B050F0D
D48BEDFA0D06112925ED1D3CF8361842
FF83EEC9F8FEECF3D01CDFF1F10A38FA
19EFC60A15E8F6D644E5FF7FD3F1ED00
EAEB2300CF07185AEE28D8E5FF0FF726
F01001DB2F05F5EDFAF72CFADB1803F3
EFF403D615EB0324E512E22C2A21E8FE
F4ACAA0413FDAE24C4ABC11D3DA2FEF6
1016E9E4E4FFECE92EF716EEDFCB12ED
200507E3DDD933E0AE22EA24F4C84E03
00A2B7CAF1FB4129F9F52AEDF62635EA
F8FD03CE1EC06E1ACD08C50DD1DFD659
F5040F140C15EEF9081BDF1BE8FFE2F4
E24AEE02181222F1080605060FEE46EC
E208001017F4F7FCECE61404DCFFCACF
2EB724E0F9FE303613FEF5E8B8023432
228000EA32F9FB190321CF380C090413
2490E3EB2A05ED3FFCFA7078CC58DE44
C3C5130509F329E9F9FD3219EADA06EE
E2EB0BD50B1B24FB142B1114F206F6E4
E3ABE0271D0CDC02EE1D0BE6D8FC0FF0
0A2CA9C93CFDF0292F151EFB7F0E080C
CFBEEC21062356D638DC36F225F4FF0A
C2F7B9E1F7CE11E4A747BD2E6010D608
105DB3E97FEBE92A091D1E0B1FC20FF3
E84180FB231E2257FFDED5BABC1E44CF
A54343F48006F520EDE309ECD1152CD2
1EA2FBD701180AE3932EF44EE1D40B2C
1892150815F5EC17EEEE00FB01130007
DE9AED3AFFE40DF50BF0E980342C1D17
7CB77F75C10A1B06D7345E14F91B001E
F2F525FAF2A043F333F9A2310D1518FC
F6030801FD0BF429FFFC0CF60CFDFA0B
CBF1020E09E1D5F141F81C18175EE822
EEF203E8DCF2F70EF9FCC8DE09E4DB0E
E1DE00F3211C2FF20F18D7F0EE2B2007
E9E1E01AC7D75131FBE8381FD3B9CA48
F6011C1CF3F00E1713FD140BF1E1FAF7
25EC0F14F43122C7FA1609FC24F7CCBF
92021E2ADA15BB0FFA05EFDD11D69D3F
20C41004D3F909FEFA19F0A0EE0E33E1
E0C2C4AE2228F8DFCAE43609E1EC26E4
00F0E61DECEA04EEFFFDF1221313F510
E46A325017AA35EE28F1F71A28FBC932
C07F00F82F09EE0D1B010AEE1C1B1202
1CF017FF0808ECFBF605F42DA2BCF939
31E5FDD9D8FC08E5E4FD0236F70ADBFE
9F049FD9F3261A118018FDE7F523DEA5
FE00F9F905F0F5FEECF5FC0C04FEFA07
F72E1BC0DD1E1B19F0D218FB0DF32C5B
2C5106FACFF7DF17EFCA222E7F1EF4F3
C29E371ACB031E272822DEED33E4FA0F
A7CAF52008EDF4190C0CFED3F119CAEC
EA0EFE0BE6F0EFF6F10FEE23FDF6E807
39F541C61FC5EAECFEEBB9F7137F1AEF
0736132D97ED543EF6DA34FAFC145C32
1912F6E8F7140C051921F7E8FFD91FFB
062D88FC0F49E413FC4F74AC0EC20207
0008FF1EFDFCE4F9F60E151212F224FB
22D31E072C18F633E4F1E0DD00CEE2D7
FB0104FCEF0D0CF81EEB0106EAFAFB16
0BFEE601D3DD07E7E806EDF3F4040E17
E9E103F4040DCF0102F60E00F9220B2E
201B484202F901D404E61620B4F407F0
F80C1DE9F70EFBFFFC04081100F80111
1E33A9EA1ED309F6F0F7DE57F8D50B40
E152FA0AFFF8E814E930F0FA30C8FCF6
15F12A3C03F507C9E40218D01902FCEC
B1FBDF101B081914B938D1F610D112EB
FF1BFD0FD90DF8FBFAF414FE0FE1F80B
FBE20A1AFB46295C06F42ECCEBF01334
F8DCC0D65EBE8E16D705F43ADBC6E135
FDE0D7140D0613F40C1006FE20D920FB
328DD2D20DB2C8D4123C1302C917D7FA
E823DDEB1025020EF827FCE9F30E09E7
CB1E0705E8203856E012E8D811E6C9C9
0CDA1FFE0C01070BF213F6180F08EB24
0FE1F5DD0105E20E00FA120B2934292C
041821BD20D00606F0EEF6C8204A22FB
F9EB0BD90ED012D30DC8E4F7220EECFA
03FD03FEF80EFD13FD0B040306F7FF00
120FCD3518E01E09F9FC0701F1EC032B
F70D11D118F9F41F003B05FBCFEDFE19
CDE8D3ED25B6EDF93325FB191F11B9D7
E9FF2EFFE91DBC20E828EFFCDFF9EB1D
05F609F6F5F5E712F61102E3F91707FC
03ED2BEEC22AFB04D421E2BC040CEC2D
E6B94FE4DA9FFA7FFDEA52D215D0D3E7
1CF80203E317F3DEFF13FBEBEB12020F
1916CDE2F9EBF3E9F944BF335430D0F8
29E4FA04FF17F3EDEAE8FB15FF04F412
C8E21C0E3329FDD9B70D332F52DC47DF
F81DDCF717F8FB10FEF20FEF09F60012
0414F7D9022F24240FEF12FAF2F00A07
0FFEF631F6F90AF11500193C19DFF0FC
