D7ED0FEEECD904DB34042216F73BEA1D
F3FEF50AF80B030903FD0931FF04E311
FD10FBFF04FB000CF3FEF404030CEE04
16F5EA0514200018E3F5001006EF2009
00000000000000000000000000000000
00000000000000000000000000000000
00000000000000000000000000000000
00000000000000000000000000000000
00000000000000000000000000000000
00000000000000000000000000000000
00000000000000000000000000000000
00000000000000000000000000000000
00000000000000000000000000000000
00000000000000000000000000000000
00000000000000000000000000000000
00000000000000000000000000000000
140F0AE3B8DC04DC55FEFAE3061516C7
29EF36DCE20E09B5420404DFFB04F1FB
0826C40F17FE0640D005F4F8F7EC1E0B
400EC61618141041AC0BE708F5E2D8CC
00000000000000000000000000000000
00000000000000000000000000000000
00000000000000000000000000000000
00000000000000000000000000000000
00000000000000000000000000000000
00000000000000000000000000000000
00000000000000000000000000000000
00000000000000000000000000000000
00000000000000000000000000000000
00000000000000000000000000000000
00000000000000000000000000000000
00000000000000000000000000000000
1D0506FB0E13EEF60BFDDB1BFF120C03
1D0014F2FD12F6E81DFEDAFA04EDECFB
0204F903FBF3FF05F7FDF70700FB1F06
2401DD0610190724ED04E502F907F5D6
00000000000000000000000000000000
00000000000000000000000000000000
00000000000000000000000000000000
00000000000000000000000000000000
00000000000000000000000000000000
00000000000000000000000000000000
00000000000000000000000000000000
00000000000000000000000000000000
00000000000000000000000000000000
00000000000000000000000000000000
00000000000000000000000000000000
00000000000000000000000000000000
D2EC30E749E4EDC6F712C943FF0908C8
0A13BF1DDEDB0454F4FF0503F91B000F
F0F823EB09FFF9D31EFD08F801FB01E7
D71AB615BC000A57F3010611FAFDF100
00000000000000000000000000000000
00000000000000000000000000000000
00000000000000000000000000000000
00000000000000000000000000000000
00000000000000000000000000000000
00000000000000000000000000000000
00000000000000000000000000000000
00000000000000000000000000000000
00000000000000000000000000000000
00000000000000000000000000000000
00000000000000000000000000000000
00000000000000000000000000000000
1602B2538E2BDE44573D08FCBCE8D924
EA29342F7F0A23B380290BE9E0001D0D
170B101080070AFC30D901042813F007
FF006DF14C220880FCB0F91A49001614
00000000000000000000000000000000
00000000000000000000000000000000
00000000000000000000000000000000
00000000000000000000000000000000
00000000000000000000000000000000
00000000000000000000000000000000
00000000000000000000000000000000
00000000000000000000000000000000
00000000000000000000000000000000
00000000000000000000000000000000
00000000000000000000000000000000
00000000000000000000000000000000
EBE3E21B561C132380F814E40EC2FC52
E10C020A21EA01FD3D080802FFF613FE
1BFEF0FF29F4F60CCBFE05F501FEFDEA
23E84003C43524C511FE241810E7EAF3
00000000000000000000000000000000
00000000000000000000000000000000
00000000000000000000000000000000
00000000000000000000000000000000
00000000000000000000000000000000
00000000000000000000000000000000
00000000000000000000000000000000
00000000000000000000000000000000
00000000000000000000000000000000
00000000000000000000000000000000
00000000000000000000000000000000
00000000000000000000000000000000
F5D301E5EA36F00319E9FA2C0E270404
EF0BE7F6FC13071BF6050331FD0E3523
FCED12F005E0F6ED1007EDDBFA0B0709
06D2D7FDF2EE092D18FFEB13FF270310
00000000000000000000000000000000
00000000000000000000000000000000
00000000000000000000000000000000
00000000000000000000000000000000
00000000000000000000000000000000
00000000000000000000000000000000
00000000000000000000000000000000
00000000000000000000000000000000
00000000000000000000000000000000
00000000000000000000000000000000
00000000000000000000000000000000
00000000000000000000000000000000
40CBDCE4E419264FF28B170B6F212DCD
FFF9ECF4E5FE0D1BCFAC06054516E5ED
F101F7EFF5FEF30354220726DAFB2C05
F6EB42F6EACB36AACD3408FCCAC8CF14
00000000000000000000000000000000
00000000000000000000000000000000
00000000000000000000000000000000
00000000000000000000000000000000
00000000000000000000000000000000
00000000000000000000000000000000
00000000000000000000000000000000
00000000000000000000000000000000
00000000000000000000000000000000
00000000000000000000000000000000
00000000000000000000000000000000
00000000000000000000000000000000
090CF905EA000400C80DE8FFF2CEE502
E0DF0501F9E905FB02F6E70D02FBCFF6
1C11050A04F60BFBE101F30B03090221
F7E506F74DF0BDEC7913FDDEE90C09FA
00000000000000000000000000000000
00000000000000000000000000000000
00000000000000000000000000000000
00000000000000000000000000000000
00000000000000000000000000000000
00000000000000000000000000000000
00000000000000000000000000000000
00000000000000000000000000000000
00000000000000000000000000000000
00000000000000000000000000000000
00000000000000000000000000000000
00000000000000000000000000000000
